unsigned char flood_model_tflite[] = {
  0x1c, 0x00, 0x00, 0x00, 0x54, 0x46, 0x4c, 0x33, 0x14, 0x00, 0x20, 0x00,
  0x1c, 0x00, 0x18, 0x00, 0x14, 0x00, 0x10, 0x00, 0x0c, 0x00, 0x00, 0x00,
  0x08, 0x00, 0x04, 0x00, 0x14, 0x00, 0x00, 0x00, 0x1c, 0x00, 0x00, 0x00,
  0x8c, 0x00, 0x00, 0x00, 0xe4, 0x00, 0x00, 0x00, 0x10, 0x11, 0x00, 0x00,
  0x20, 0x11, 0x00, 0x00, 0x74, 0x1b, 0x00, 0x00, 0x03, 0x00, 0x00, 0x00,
  0x01, 0x00, 0x00, 0x00, 0x04, 0x00, 0x00, 0x00, 0xa2, 0xee, 0xff, 0xff,
  0x0c, 0x00, 0x00, 0x00, 0x1c, 0x00, 0x00, 0x00, 0x3c, 0x00, 0x00, 0x00,
  0x0f, 0x00, 0x00, 0x00, 0x73, 0x65, 0x72, 0x76, 0x69, 0x6e, 0x67, 0x5f,
  0x64, 0x65, 0x66, 0x61, 0x75, 0x6c, 0x74, 0x00, 0x01, 0x00, 0x00, 0x00,
  0x04, 0x00, 0x00, 0x00, 0x90, 0xff, 0xff, 0xff, 0x0a, 0x00, 0x00, 0x00,
  0x04, 0x00, 0x00, 0x00, 0x08, 0x00, 0x00, 0x00, 0x6f, 0x75, 0x74, 0x70,
  0x75, 0x74, 0x5f, 0x30, 0x00, 0x00, 0x00, 0x00, 0x01, 0x00, 0x00, 0x00,
  0x04, 0x00, 0x00, 0x00, 0x72, 0xf0, 0xff, 0xff, 0x04, 0x00, 0x00, 0x00,
  0x0f, 0x00, 0x00, 0x00, 0x6b, 0x65, 0x72, 0x61, 0x73, 0x5f, 0x74, 0x65,
  0x6e, 0x73, 0x6f, 0x72, 0x5f, 0x33, 0x32, 0x00, 0x02, 0x00, 0x00, 0x00,
  0x34, 0x00, 0x00, 0x00, 0x04, 0x00, 0x00, 0x00, 0xdc, 0xff, 0xff, 0xff,
  0x0d, 0x00, 0x00, 0x00, 0x04, 0x00, 0x00, 0x00, 0x13, 0x00, 0x00, 0x00,
  0x43, 0x4f, 0x4e, 0x56, 0x45, 0x52, 0x53, 0x49, 0x4f, 0x4e, 0x5f, 0x4d,
  0x45, 0x54, 0x41, 0x44, 0x41, 0x54, 0x41, 0x00, 0x08, 0x00, 0x0c, 0x00,
  0x08, 0x00, 0x04, 0x00, 0x08, 0x00, 0x00, 0x00, 0x0c, 0x00, 0x00, 0x00,
  0x04, 0x00, 0x00, 0x00, 0x13, 0x00, 0x00, 0x00, 0x6d, 0x69, 0x6e, 0x5f,
  0x72, 0x75, 0x6e, 0x74, 0x69, 0x6d, 0x65, 0x5f, 0x76, 0x65, 0x72, 0x73,
  0x69, 0x6f, 0x6e, 0x00, 0x0e, 0x00, 0x00, 0x00, 0x28, 0x10, 0x00, 0x00,
  0x20, 0x10, 0x00, 0x00, 0x10, 0x0f, 0x00, 0x00, 0x78, 0x0e, 0x00, 0x00,
  0x64, 0x0e, 0x00, 0x00, 0xd4, 0x0d, 0x00, 0x00, 0xc4, 0x05, 0x00, 0x00,
  0xb4, 0x00, 0x00, 0x00, 0xac, 0x00, 0x00, 0x00, 0xa4, 0x00, 0x00, 0x00,
  0x9c, 0x00, 0x00, 0x00, 0x94, 0x00, 0x00, 0x00, 0x74, 0x00, 0x00, 0x00,
  0x04, 0x00, 0x00, 0x00, 0x26, 0xf1, 0xff, 0xff, 0x04, 0x00, 0x00, 0x00,
  0x60, 0x00, 0x00, 0x00, 0x0c, 0x00, 0x00, 0x00, 0x08, 0x00, 0x0e, 0x00,
  0x08, 0x00, 0x04, 0x00, 0x08, 0x00, 0x00, 0x00, 0x10, 0x00, 0x00, 0x00,
  0x28, 0x00, 0x00, 0x00, 0x00, 0x00, 0x06, 0x00, 0x08, 0x00, 0x04, 0x00,
  0x06, 0x00, 0x00, 0x00, 0x04, 0x00, 0x00, 0x00, 0x01, 0x00, 0x00, 0x00,
  0xea, 0x03, 0x00, 0x00, 0x0c, 0x00, 0x18, 0x00, 0x14, 0x00, 0x10, 0x00,
  0x0c, 0x00, 0x04, 0x00, 0x0c, 0x00, 0x00, 0x00, 0xb2, 0xd1, 0x16, 0xa7,
  0xf9, 0x95, 0x0a, 0x5e, 0x02, 0x00, 0x00, 0x00, 0x02, 0x00, 0x00, 0x00,
  0x04, 0x00, 0x00, 0x00, 0x06, 0x00, 0x00, 0x00, 0x32, 0x2e, 0x31, 0x38,
  0x2e, 0x30, 0x00, 0x00, 0x92, 0xf1, 0xff, 0xff, 0x04, 0x00, 0x00, 0x00,
  0x10, 0x00, 0x00, 0x00, 0x32, 0x2e, 0x31, 0x37, 0x2e, 0x30, 0x00, 0x00,
  0x00, 0x00, 0x00, 0x00, 0x00, 0x00, 0x00, 0x00, 0x64, 0xe6, 0xff, 0xff,
  0x68, 0xe6, 0xff, 0xff, 0x6c, 0xe6, 0xff, 0xff, 0x70, 0xe6, 0xff, 0xff,
  0xbe, 0xf1, 0xff, 0xff, 0x04, 0x00, 0x00, 0x00, 0x00, 0x05, 0x00, 0x00,
  0x7f, 0x75, 0x73, 0x64, 0x11, 0xf6, 0x26, 0xd6, 0x78, 0xcb, 0x34, 0x59,
  0xf8, 0x8f, 0xfa, 0xf7, 0x3e, 0xd3, 0xe2, 0xee, 0xba, 0x61, 0x65, 0x66,
  0x7f, 0x2d, 0x51, 0x62, 0x2f, 0x03, 0x74, 0x3a, 0x35, 0x52, 0x20, 0x4e,
  0x0a, 0x4e, 0x3f, 0x27, 0x55, 0x43, 0x06, 0x2d, 0xec, 0x10, 0xe7, 0x16,
  0xf4, 0x7f, 0x04, 0x10, 0x13, 0xf1, 0x7f, 0x38, 0x20, 0x3c, 0x7f, 0x08,
  0xe5, 0x4c, 0x15, 0xe1, 0xb8, 0xc6, 0x29, 0xf5, 0x3e, 0xe1, 0xa3, 0xe4,
  0x22, 0xe1, 0x54, 0x81, 0xc4, 0xe0, 0x0b, 0x26, 0x2f, 0xa3, 0xbb, 0xc8,
  0x2b, 0xbc, 0xe3, 0x22, 0xf3, 0xb4, 0x81, 0xdf, 0xcd, 0xda, 0xe0, 0x3c,
  0xf1, 0xb0, 0xf0, 0x1b, 0xef, 0xac, 0x9f, 0x2f, 0x3c, 0x03, 0xeb, 0xc9,
  0x48, 0x43, 0xc6, 0x7f, 0xc2, 0x3f, 0x1e, 0xa2, 0x02, 0x10, 0xec, 0xf7,
  0x63, 0x6d, 0x7f, 0x6f, 0x6e, 0x6d, 0x67, 0x61, 0x6c, 0x6b, 0x69, 0x6b,
  0x6a, 0x6c, 0x70, 0x68, 0x6f, 0x6a, 0x6b, 0x6d, 0x7f, 0xe3, 0xf7, 0xbd,
  0x10, 0xe4, 0xc2, 0x44, 0x0f, 0xe2, 0xea, 0x52, 0x39, 0x26, 0xfe, 0x08,
  0x0b, 0x0d, 0x13, 0xf4, 0x87, 0x86, 0x90, 0x96, 0x8b, 0xa5, 0x89, 0x8e,
  0x92, 0x99, 0x91, 0x94, 0xa1, 0x8e, 0x8a, 0x81, 0xa1, 0xa4, 0x98, 0x94,
  0xd3, 0xd1, 0xe6, 0xab, 0xc1, 0xbc, 0xa4, 0xc2, 0xc4, 0xaa, 0xb1, 0xdf,
  0xa5, 0x8e, 0x8d, 0xd0, 0x81, 0x9c, 0x94, 0xc4, 0xee, 0x17, 0xff, 0x03,
  0x81, 0x41, 0xe3, 0xaf, 0x23, 0xc5, 0xb8, 0xd5, 0x1d, 0xb4, 0xb6, 0xc3,
  0xfa, 0xcb, 0xf9, 0xdd, 0xdc, 0x07, 0x91, 0x1b, 0xe4, 0x17, 0xd2, 0xa2,
  0x22, 0xbd, 0x81, 0x07, 0x1e, 0xb0, 0x8f, 0x16, 0x8a, 0x25, 0x75, 0x1a,
  0xe4, 0x45, 0x5c, 0x1e, 0x81, 0xee, 0x55, 0xf8, 0x47, 0xd1, 0x17, 0xdc,
  0x0d, 0x43, 0xf8, 0xd7, 0x64, 0x05, 0x32, 0xe2, 0xe6, 0x10, 0x1a, 0xe7,
  0x47, 0x96, 0xd3, 0x2a, 0x2c, 0x5e, 0xf5, 0x8c, 0x81, 0x4e, 0xcb, 0x27,
  0x03, 0x6f, 0xf0, 0x22, 0xc9, 0xc6, 0x3a, 0x0d, 0x50, 0x02, 0xbf, 0x0a,
  0x1d, 0x38, 0x2f, 0xf2, 0x81, 0x0e, 0xb2, 0x2a, 0x2e, 0xcc, 0x0c, 0xe3,
  0x25, 0xc8, 0x39, 0x81, 0x1f, 0x17, 0x3f, 0xf4, 0xe5, 0xe3, 0xee, 0x2c,
  0xf4, 0x45, 0x0b, 0x19, 0xc5, 0x2f, 0x36, 0x34, 0xf7, 0x00, 0xc3, 0x23,
  0x7f, 0x25, 0x10, 0x40, 0xf7, 0xfb, 0x5b, 0xcd, 0x43, 0x70, 0x1d, 0x60,
  0x88, 0xa7, 0x3b, 0x06, 0xf8, 0x9f, 0xab, 0xf5, 0x21, 0x1f, 0xad, 0x13,
  0x30, 0xe2, 0xdb, 0x1c, 0x0a, 0x03, 0x42, 0x81, 0xc1, 0x50, 0x1b, 0x11,
  0x68, 0x69, 0x72, 0x6a, 0x6e, 0x7f, 0x67, 0x71, 0x60, 0x73, 0x74, 0x74,
  0x6e, 0x77, 0x68, 0x68, 0x6d, 0x75, 0x6f, 0x6e, 0xb7, 0x2b, 0xd6, 0x54,
  0x67, 0x2a, 0xce, 0xbe, 0x1c, 0xdd, 0x7f, 0xf1, 0x10, 0x7b, 0xa9, 0xc2,
  0xed, 0x39, 0xf9, 0x29, 0xf6, 0x5c, 0xe2, 0x81, 0xf7, 0x1c, 0xab, 0x62,
  0xbc, 0xc8, 0x5e, 0xeb, 0xd9, 0x2c, 0x8d, 0xf9, 0x3b, 0x60, 0xf1, 0x21,
  0xc9, 0x19, 0x81, 0xf5, 0xb5, 0x21, 0xee, 0xb5, 0xd5, 0xbc, 0x02, 0xe0,
  0xeb, 0x99, 0xed, 0x31, 0x96, 0x3e, 0x4b, 0x24, 0x86, 0x86, 0x8d, 0x89,
  0x8a, 0x92, 0x84, 0x8a, 0x81, 0x8c, 0x8d, 0x8d, 0x89, 0x8f, 0x86, 0x87,
  0x88, 0x8d, 0x8a, 0x87, 0xfe, 0x2f, 0xd7, 0x61, 0x45, 0xcf, 0x7a, 0x76,
  0x0c, 0xd5, 0x27, 0x4b, 0x48, 0x02, 0x7f, 0x72, 0xf1, 0x36, 0x47, 0x0a,
  0xde, 0xe0, 0xdc, 0x81, 0xcd, 0xe6, 0x67, 0xf2, 0x69, 0x12, 0xa6, 0x9f,
  0x39, 0xe1, 0xf2, 0xc8, 0xd7, 0x37, 0x4a, 0xea, 0xee, 0xb7, 0xd0, 0x81,
  0xdf, 0xcc, 0x13, 0xf8, 0xb4, 0x05, 0xd3, 0xfb, 0x08, 0x83, 0x9b, 0xf3,
  0xd1, 0xf6, 0x92, 0xe2, 0xf0, 0x0e, 0x1f, 0xb7, 0xfe, 0xee, 0xe0, 0x81,
  0xff, 0x08, 0xba, 0xff, 0xd1, 0x35, 0xe0, 0x3b, 0x1c, 0xf0, 0x03, 0x18,
  0xd5, 0x00, 0xc3, 0x81, 0xca, 0xe1, 0xde, 0x17, 0x29, 0x91, 0x36, 0x13,
  0xf2, 0xb1, 0x59, 0x1e, 0x17, 0x91, 0xfb, 0x1e, 0x05, 0x2c, 0x81, 0xf9,
  0xf4, 0xc9, 0x21, 0x15, 0x13, 0x8e, 0xf8, 0x5e, 0xdc, 0xf2, 0x07, 0x19,
  0x0e, 0x42, 0x0f, 0x8c, 0x0b, 0x13, 0x4b, 0xe9, 0x28, 0x22, 0x21, 0x2d,
  0xfa, 0x38, 0xab, 0xf5, 0x81, 0x02, 0x12, 0xfc, 0xa8, 0xd2, 0xe5, 0xfc,
  0x19, 0x7c, 0x49, 0xeb, 0xdf, 0x45, 0xda, 0x95, 0x7f, 0x52, 0x16, 0x93,
  0x03, 0x2a, 0xb1, 0x89, 0x10, 0xc7, 0xd6, 0x71, 0x01, 0x1c, 0xfe, 0x2d,
  0x32, 0x28, 0x2a, 0x5f, 0x3b, 0x2b, 0x59, 0x61, 0x3c, 0x7a, 0x7f, 0x37,
  0x9c, 0xf7, 0x75, 0x1d, 0xfe, 0xaf, 0x2d, 0x24, 0x03, 0x35, 0x3d, 0xcb,
  0x37, 0x1f, 0xc7, 0x81, 0x97, 0x11, 0xf6, 0xc1, 0x20, 0x33, 0x05, 0xaf,
  0x12, 0xc8, 0xf1, 0xcf, 0xf7, 0xe3, 0x01, 0x46, 0xf5, 0xf6, 0xd7, 0xd0,
  0xa5, 0x01, 0xbb, 0x3b, 0xd4, 0x81, 0xdc, 0xda, 0x3f, 0x19, 0x32, 0x37,
  0xee, 0xe1, 0x2e, 0x39, 0x02, 0xd3, 0x39, 0x15, 0x13, 0x96, 0xfb, 0x34,
  0x81, 0x15, 0x01, 0xb3, 0xf5, 0xf3, 0x15, 0xd6, 0xfe, 0x81, 0x30, 0xb0,
  0xe6, 0xd8, 0xa2, 0x17, 0x23, 0xb0, 0xe7, 0x54, 0x39, 0xa7, 0x39, 0xfa,
  0xf7, 0xfa, 0x9c, 0xfd, 0x1c, 0x09, 0x81, 0x48, 0xcb, 0xe3, 0x21, 0x27,
  0xec, 0xe8, 0x9e, 0xea, 0x37, 0x18, 0x26, 0x12, 0xd2, 0xf0, 0xc5, 0xa4,
  0xf7, 0xc7, 0xe3, 0x0a, 0xf4, 0xd1, 0x81, 0xd2, 0x24, 0xd5, 0xb4, 0x60,
  0xd2, 0x93, 0xb9, 0x1e, 0x3c, 0x81, 0xe9, 0xc9, 0x0c, 0x08, 0x00, 0xc1,
  0x17, 0x20, 0xe9, 0xfd, 0x2b, 0xc0, 0xf5, 0x03, 0x17, 0xfb, 0x14, 0x04,
  0xed, 0xfd, 0xce, 0xe0, 0xc6, 0xf5, 0x81, 0xd6, 0xf8, 0xc2, 0xa9, 0xba,
  0xcf, 0xd4, 0x8a, 0xeb, 0xc6, 0xa1, 0xda, 0xbf, 0x09, 0x2b, 0x8b, 0xc5,
  0x7f, 0x25, 0xe9, 0x2e, 0x2f, 0xf8, 0x28, 0x30, 0x7a, 0x2e, 0x4c, 0x57,
  0xe9, 0x0c, 0x22, 0x24, 0x24, 0xf5, 0x29, 0x02, 0x2a, 0xcb, 0x0d, 0x08,
  0xee, 0x81, 0xef, 0xe5, 0xc5, 0x0d, 0xdb, 0x2a, 0x19, 0x1b, 0x02, 0x3d,
  0x02, 0xef, 0x04, 0xc0, 0xa1, 0xd3, 0xf0, 0x51, 0x3b, 0x8f, 0x34, 0x13,
  0x44, 0x98, 0x56, 0xab, 0xc2, 0x21, 0xe7, 0x81, 0xd4, 0xed, 0xf2, 0xd4,
  0x08, 0x81, 0x1c, 0x33, 0x0f, 0x4a, 0x2b, 0x0b, 0xdf, 0xc0, 0x4d, 0xdb,
  0xda, 0xcb, 0x18, 0xf1, 0x11, 0xc3, 0x08, 0xc6, 0x04, 0xf9, 0xff, 0xf7,
  0xcd, 0x0b, 0xdb, 0xe6, 0xb1, 0xce, 0x81, 0xdc, 0x09, 0xc2, 0x18, 0x30,
  0x0f, 0x25, 0x2a, 0x21, 0x01, 0x1f, 0xc5, 0xc3, 0xf3, 0x19, 0x01, 0x81,
  0xd6, 0xce, 0xfe, 0xfa, 0xc1, 0x16, 0x16, 0x00, 0xfd, 0xfe, 0x44, 0xd9,
  0xf2, 0x58, 0x34, 0xf3, 0xf7, 0xf6, 0x11, 0x40, 0x9c, 0xf3, 0x81, 0xbe,
  0x1c, 0xcc, 0xee, 0xe9, 0x7b, 0x7b, 0x74, 0x79, 0x77, 0x6e, 0x7c, 0x77,
  0x7f, 0x74, 0x73, 0x75, 0x77, 0x71, 0x7a, 0x7a, 0x78, 0x73, 0x77, 0x79,
  0x3b, 0x26, 0x07, 0x45, 0x58, 0x0e, 0xef, 0x81, 0xff, 0xbd, 0xdc, 0x1f,
  0xca, 0x19, 0xdb, 0x47, 0xe3, 0xee, 0xeb, 0x36, 0xd8, 0xf9, 0xbc, 0x7f,
  0xfa, 0xdf, 0xb9, 0x1d, 0xd3, 0x6b, 0xdf, 0x54, 0x1e, 0x13, 0x15, 0x81,
  0xf8, 0xe0, 0xe5, 0xe6, 0x20, 0x46, 0xe7, 0x40, 0x51, 0xeb, 0x2d, 0xf4,
  0x9d, 0x0f, 0xf2, 0x55, 0xdf, 0xca, 0xfd, 0x7f, 0x45, 0xe1, 0x18, 0xd4,
  0x1a, 0x6a, 0x2a, 0x46, 0x10, 0xe1, 0xa8, 0x1d, 0x4d, 0x2f, 0x81, 0xee,
  0xd9, 0xdb, 0x69, 0xe7, 0xe7, 0xd6, 0x42, 0xf5, 0xf7, 0xdf, 0xe9, 0xed,
  0x0c, 0x10, 0xdb, 0x00, 0x81, 0x41, 0xfa, 0x52, 0x24, 0x22, 0xe4, 0xe0,
  0x19, 0xbc, 0xdf, 0x01, 0x97, 0x96, 0x8d, 0x95, 0x91, 0x81, 0x98, 0x8f,
  0xa0, 0x8b, 0x8b, 0x8a, 0x90, 0x88, 0x96, 0x98, 0x91, 0x89, 0x90, 0x91,
  0x3e, 0xac, 0xcf, 0xf1, 0x1f, 0x41, 0x31, 0xc4, 0x17, 0x2a, 0xdd, 0x81,
  0xdb, 0x13, 0xe6, 0x11, 0xd4, 0x93, 0x41, 0xe4, 0x49, 0x87, 0x15, 0x07,
  0x4e, 0xeb, 0xe0, 0x06, 0xad, 0x3b, 0x72, 0x11, 0x81, 0x14, 0xae, 0x13,
  0xc6, 0x9d, 0xf0, 0xc9, 0x27, 0xd5, 0x39, 0xcc, 0xf7, 0xe5, 0x7f, 0xda,
  0x33, 0xba, 0xd5, 0xc4, 0x30, 0xe7, 0x10, 0xd5, 0x37, 0x54, 0x34, 0x9e,
  0x81, 0x02, 0x48, 0xcd, 0x18, 0x3e, 0x9e, 0x75, 0x9e, 0x20, 0x37, 0x16,
  0x0e, 0x05, 0x06, 0xff, 0x04, 0xce, 0x17, 0x17, 0xf4, 0xde, 0x0d, 0xce,
  0xc3, 0x43, 0xe0, 0x1e, 0x81, 0x07, 0xd9, 0xf0, 0xea, 0x61, 0xe9, 0x99,
  0x16, 0xfb, 0x09, 0x05, 0x07, 0x40, 0x12, 0x81, 0x23, 0x85, 0x61, 0x2a,
  0x7b, 0xeb, 0xe2, 0x22, 0x43, 0x08, 0x07, 0xd6, 0xc5, 0x3a, 0xcd, 0xec,
  0x2e, 0x64, 0x39, 0x46, 0x62, 0x5f, 0x1e, 0x7f, 0xdb, 0xc2, 0x02, 0x49,
  0x20, 0x57, 0x03, 0x30, 0x07, 0x21, 0xdd, 0xf3, 0xa9, 0x87, 0x98, 0x92,
  0xb8, 0x81, 0x9c, 0xa6, 0x91, 0x88, 0x97, 0x86, 0x9c, 0x9d, 0x88, 0x8d,
  0x8c, 0x9b, 0x8f, 0xb5, 0xca, 0x15, 0xe9, 0xee, 0xdd, 0xdf, 0x9d, 0x38,
  0xe4, 0x81, 0x63, 0xfc, 0xb4, 0x3b, 0xe0, 0x2e, 0xc8, 0x0a, 0x16, 0xef,
  0xcf, 0xad, 0xce, 0x98, 0x27, 0xbe, 0xb3, 0xfa, 0xa3, 0xcf, 0x31, 0xef,
  0xc8, 0x81, 0xcf, 0xd6, 0xe5, 0x8f, 0xc8, 0xd1, 0xca, 0xf6, 0xff, 0xff,
  0x04, 0x00, 0x00, 0x00, 0x00, 0x08, 0x00, 0x00, 0x11, 0x55, 0x31, 0x46,
  0x11, 0xf8, 0xe7, 0xcd, 0xf1, 0x1e, 0xf6, 0x27, 0x38, 0xd1, 0xa7, 0x04,
  0x14, 0x3a, 0xf6, 0x2c, 0xca, 0xf7, 0xbb, 0xa2, 0xdb, 0x3a, 0x5d, 0xa5,
  0x28, 0xfa, 0x04, 0xf3, 0xb6, 0xb2, 0xf9, 0xb6, 0xcc, 0x3c, 0x23, 0x15,
  0xb7, 0xe0, 0x0b, 0x9b, 0x58, 0x9f, 0x81, 0x09, 0xb9, 0x0f, 0x21, 0xd4,
  0xb4, 0x98, 0x99, 0xd3, 0xfb, 0xe0, 0x8f, 0xd7, 0x10, 0x45, 0xbe, 0x91,
  0xe2, 0x12, 0x52, 0xd9, 0xf3, 0x68, 0x26, 0xb5, 0xfb, 0x02, 0x5f, 0xd6,
  0x35, 0x2b, 0x4f, 0xdd, 0x4e, 0xa8, 0x2c, 0xda, 0x05, 0x50, 0xce, 0x44,
  0xec, 0xe3, 0x26, 0x0c, 0x0d, 0x54, 0x34, 0xb8, 0xf9, 0xd4, 0x4c, 0x44,
  0xc6, 0xf1, 0xb3, 0xc9, 0x07, 0x29, 0xc0, 0xae, 0xde, 0x21, 0x46, 0x7d,
  0xe2, 0x37, 0x33, 0x27, 0x68, 0x37, 0x61, 0x5a, 0x29, 0x7f, 0x3c, 0x5f,
  0x0c, 0x4f, 0x41, 0xd1, 0x46, 0xf7, 0xa9, 0xef, 0x2f, 0xa4, 0x09, 0xbf,
  0x42, 0xdc, 0xfb, 0xf8, 0x2c, 0x59, 0x05, 0x39, 0x07, 0x15, 0x0a, 0x0e,
  0x97, 0xf2, 0xea, 0xc1, 0x1c, 0xea, 0xa9, 0xe4, 0xbb, 0x45, 0xd2, 0xda,
  0x0e, 0x16, 0xc6, 0xfe, 0xdb, 0xc2, 0x32, 0x36, 0x34, 0x0b, 0x33, 0xbb,
  0x27, 0x9c, 0x4f, 0x08, 0xb7, 0xbc, 0x11, 0xb8, 0x09, 0xd8, 0xaf, 0x81,
  0x3e, 0xcb, 0x0a, 0xcf, 0x27, 0xf6, 0x9a, 0x4a, 0x47, 0x0f, 0x2b, 0xd0,
  0x5d, 0x91, 0xe6, 0xb6, 0xb1, 0x9b, 0xcc, 0x39, 0xba, 0x9a, 0x95, 0xde,
  0x48, 0x34, 0xe2, 0x03, 0x8a, 0xe9, 0xd9, 0xad, 0xae, 0xdb, 0xb4, 0x00,
  0xb5, 0xe8, 0x27, 0x36, 0xf2, 0x87, 0xaf, 0x08, 0x1e, 0x9b, 0x92, 0x28,
  0x96, 0xc5, 0x10, 0xd9, 0xce, 0xb4, 0x24, 0x01, 0x35, 0xcc, 0xb1, 0xbf,
  0x97, 0x1d, 0x97, 0x8e, 0xe1, 0x9d, 0x81, 0x15, 0xa7, 0x9a, 0x32, 0xc7,
  0x09, 0x16, 0xfd, 0x4a, 0xba, 0xa9, 0x81, 0xd0, 0xf1, 0xee, 0x31, 0x2b,
  0x0c, 0x15, 0xf4, 0x9e, 0xc8, 0x41, 0x0f, 0x11, 0x97, 0xc1, 0x15, 0x8b,
  0x2b, 0xf5, 0x2d, 0x12, 0x02, 0xf5, 0xc7, 0xf1, 0xa5, 0xe6, 0xe6, 0xf1,
  0xfd, 0x30, 0x43, 0x45, 0x01, 0xa3, 0x30, 0x26, 0xac, 0xbc, 0xe3, 0x11,
  0xe9, 0xc8, 0xa1, 0xc4, 0x9c, 0xb9, 0xbc, 0xf4, 0xa6, 0xd1, 0xc9, 0x07,
  0xda, 0x0e, 0xbd, 0xf8, 0x86, 0x0c, 0xd4, 0xa4, 0x90, 0x17, 0xc9, 0xb9,
  0x1e, 0x81, 0x2f, 0x2f, 0xcc, 0xba, 0x18, 0x13, 0x03, 0x96, 0xe9, 0xa9,
  0xb2, 0x96, 0x2b, 0x21, 0xe6, 0x27, 0x99, 0xb0, 0xeb, 0x06, 0xa5, 0xc9,
  0xe4, 0xd6, 0xf4, 0x06, 0x35, 0x96, 0x25, 0x08, 0x41, 0x40, 0xdc, 0x39,
  0xb9, 0x93, 0xa3, 0xcc, 0x92, 0xd2, 0x0d, 0xe5, 0xbe, 0x90, 0x48, 0x83,
  0x2c, 0x17, 0xd3, 0x04, 0x87, 0x37, 0xdd, 0xeb, 0x4e, 0xde, 0x5e, 0xb0,
  0x37, 0xbc, 0x0b, 0x57, 0xcd, 0x38, 0x9b, 0xbe, 0xf8, 0x55, 0xc6, 0x62,
  0x5b, 0xc7, 0xe4, 0x45, 0x1b, 0xce, 0x05, 0x79, 0x1f, 0xfa, 0xcf, 0x70,
  0xf1, 0xcc, 0x7f, 0x38, 0x8c, 0x1d, 0x55, 0x04, 0x68, 0xea, 0x64, 0x3f,
  0xf6, 0x58, 0x97, 0xfc, 0xa7, 0x10, 0x6c, 0x95, 0xe5, 0xda, 0x5c, 0x66,
  0x2f, 0xf1, 0x4d, 0x44, 0x3d, 0x38, 0xb6, 0xe4, 0xbb, 0x22, 0xe4, 0x14,
  0x0c, 0x0e, 0xc2, 0x29, 0xa5, 0x81, 0xf5, 0x91, 0xb3, 0x85, 0xd0, 0x21,
  0x14, 0xc9, 0xc1, 0xfe, 0xfd, 0xec, 0x21, 0xca, 0xfd, 0x16, 0xe5, 0x01,
  0xa3, 0xc6, 0xa4, 0x1d, 0x90, 0xbb, 0x9b, 0xf0, 0x3d, 0xf9, 0x10, 0x96,
  0xb8, 0xdd, 0xa1, 0xe8, 0xd6, 0x23, 0xd2, 0xd7, 0x48, 0xe5, 0xa4, 0xdc,
  0x91, 0x56, 0xce, 0xa3, 0x30, 0x2d, 0xa0, 0x32, 0xe5, 0x2a, 0xfd, 0x23,
  0xa6, 0x06, 0x23, 0xc1, 0x5d, 0x90, 0xd4, 0xc0, 0x94, 0x4b, 0x92, 0xf7,
  0x05, 0x9f, 0xa5, 0xa7, 0xc4, 0xed, 0x21, 0xe4, 0xc7, 0xff, 0x81, 0x2c,
  0x48, 0x22, 0x1b, 0x39, 0x00, 0xc5, 0xc6, 0x22, 0xa6, 0xe6, 0xaa, 0xcb,
  0x8c, 0xb3, 0xeb, 0xd3, 0x01, 0x0f, 0xa4, 0xfc, 0x47, 0xd8, 0xae, 0x9c,
  0xb6, 0x2d, 0x39, 0xaf, 0x09, 0xb4, 0x17, 0xf4, 0x0b, 0xd5, 0xd0, 0xc0,
  0x38, 0x8b, 0xa8, 0xb7, 0xe3, 0x04, 0xe0, 0xea, 0xee, 0x16, 0x29, 0xd9,
  0xe7, 0xd1, 0xe3, 0x00, 0xaa, 0xc4, 0xca, 0xa8, 0x08, 0xbb, 0xbf, 0xcc,
  0x03, 0xe9, 0x09, 0x3e, 0xd1, 0xaf, 0x13, 0xf5, 0x1d, 0xbc, 0xd6, 0xf6,
  0x0d, 0x0a, 0xe7, 0x2d, 0xe9, 0x5d, 0xd7, 0xfa, 0x09, 0x0b, 0x3a, 0xa1,
  0xb2, 0xe4, 0xd3, 0x08, 0x05, 0x2d, 0xe7, 0xc0, 0x81, 0xe4, 0x30, 0x17,
  0x38, 0x00, 0xf8, 0x10, 0xd0, 0x27, 0xd1, 0xa9, 0xe2, 0x36, 0xd2, 0xc8,
  0xfa, 0xc0, 0xf2, 0xc8, 0x40, 0xe5, 0xa0, 0x9a, 0x68, 0x7f, 0xd4, 0x3f,
  0x08, 0xd8, 0xa7, 0xcd, 0x96, 0x59, 0x1b, 0x3e, 0xfd, 0x25, 0xe8, 0xc3,
  0xe7, 0x19, 0xf8, 0xc5, 0x49, 0xfa, 0x4e, 0x50, 0xbb, 0xef, 0xba, 0x5a,
  0xe6, 0x61, 0x34, 0x90, 0xb1, 0x41, 0x79, 0xeb, 0x58, 0xaf, 0xbb, 0xe5,
  0xe8, 0x2a, 0x13, 0x2e, 0x07, 0x87, 0xb3, 0xbd, 0xcd, 0x05, 0x0e, 0x43,
  0x1c, 0x4b, 0xcb, 0xdb, 0x81, 0x1b, 0x33, 0x2d, 0x16, 0xbe, 0xb6, 0x48,
  0x3d, 0x05, 0xc3, 0x3a, 0xc1, 0x14, 0xe7, 0x1a, 0x03, 0x08, 0xc1, 0x3d,
  0x4b, 0xfe, 0x0e, 0xb8, 0xbf, 0x8c, 0xf3, 0xbd, 0xa2, 0x9f, 0xb9, 0x5c,
  0x2b, 0x15, 0xfa, 0x2c, 0x1c, 0xb7, 0x22, 0xea, 0xc8, 0xc2, 0x57, 0x54,
  0x61, 0x0e, 0xed, 0xa8, 0xd9, 0xf8, 0xdf, 0xd1, 0x28, 0x8f, 0xa4, 0xe7,
  0xe6, 0xa8, 0x0d, 0xcd, 0xb2, 0xfd, 0x9a, 0xf6, 0x4b, 0xa3, 0xc6, 0xea,
  0xbc, 0x9e, 0x28, 0xd5, 0x38, 0xf6, 0xf2, 0xd5, 0x02, 0xe8, 0x43, 0x81,
  0xd3, 0x17, 0x48, 0xbc, 0xa9, 0x48, 0x27, 0x0b, 0x9e, 0x32, 0x1c, 0x25,
  0xd6, 0xb2, 0x39, 0xbb, 0x1f, 0xf7, 0x81, 0xe4, 0x2c, 0x10, 0x97, 0x0a,
  0x3b, 0xba, 0xc3, 0xe0, 0xb3, 0xd9, 0x0f, 0x8d, 0x31, 0xbb, 0x26, 0x09,
  0xac, 0x8e, 0x0f, 0xb8, 0x40, 0xe6, 0xee, 0x01, 0xe8, 0xd2, 0x97, 0x06,
  0xce, 0xb7, 0xef, 0xf7, 0x67, 0x4f, 0x1b, 0x38, 0x68, 0xd5, 0x35, 0x1b,
  0xd0, 0xfc, 0x40, 0x53, 0x2c, 0xe9, 0x16, 0xaa, 0xc9, 0x68, 0xec, 0xcb,
  0x67, 0x59, 0x44, 0x18, 0x68, 0xe9, 0xb9, 0xd8, 0x25, 0xf2, 0x50, 0x3b,
  0x02, 0x67, 0x7f, 0x1c, 0x32, 0x1f, 0xc1, 0x0a, 0xfc, 0x26, 0x2f, 0xde,
  0x57, 0xc5, 0xc6, 0x6a, 0xcf, 0xca, 0x3e, 0xac, 0xd6, 0x40, 0x29, 0x5a,
  0xd8, 0x24, 0xb0, 0x47, 0x03, 0x7f, 0x70, 0x5b, 0xf5, 0xfd, 0x73, 0x3b,
  0x18, 0x00, 0x01, 0x07, 0x00, 0xd6, 0xed, 0x0b, 0x61, 0xd8, 0xff, 0x19,
  0xe3, 0x4b, 0xf8, 0x30, 0x38, 0x11, 0x4c, 0x15, 0x22, 0x23, 0x52, 0x48,
  0x5a, 0xfb, 0x34, 0x2e, 0x56, 0xde, 0xe8, 0xef, 0xe6, 0x2a, 0x25, 0x50,
  0x45, 0xe2, 0xc6, 0xce, 0xfa, 0xd5, 0xcd, 0x21, 0x22, 0xe5, 0xc3, 0x39,
  0xe7, 0xe8, 0xd2, 0xd7, 0xd5, 0x49, 0x06, 0x0f, 0x3e, 0xca, 0xdd, 0xce,
  0x5c, 0x58, 0x28, 0xf3, 0x20, 0x10, 0x23, 0x19, 0x2a, 0x67, 0xa1, 0x0c,
  0x5c, 0x04, 0xef, 0x4a, 0x47, 0x40, 0x79, 0x4e, 0xca, 0x40, 0x19, 0x7f,
  0xfd, 0xdf, 0x28, 0xf0, 0xff, 0x2d, 0xe0, 0x5a, 0x4c, 0xe1, 0xbe, 0x40,
  0x07, 0xd9, 0x06, 0x12, 0x59, 0xd0, 0x5f, 0x0c, 0x22, 0x4c, 0xc3, 0x17,
  0x1d, 0x7c, 0xf5, 0x76, 0xe2, 0x36, 0x58, 0x01, 0xd4, 0x06, 0xe9, 0xe6,
  0xd5, 0xba, 0x9c, 0xf9, 0x15, 0x20, 0xa8, 0xe8, 0x99, 0x02, 0x11, 0xbc,
  0xaa, 0x37, 0xf6, 0x28, 0x18, 0xaa, 0x19, 0xa9, 0x81, 0x57, 0xd7, 0x2c,
  0xd4, 0x17, 0xd6, 0x8e, 0x33, 0x2f, 0xab, 0x46, 0xa5, 0xc6, 0xa3, 0x16,
  0xd4, 0x26, 0xf7, 0xd2, 0x56, 0xc2, 0xbf, 0x25, 0xb3, 0x00, 0xfb, 0x17,
  0xa1, 0x25, 0xf1, 0xbe, 0xe5, 0x91, 0x03, 0x41, 0xdc, 0x93, 0x05, 0xe8,
  0xf5, 0x18, 0xf6, 0x32, 0x1b, 0x1c, 0x24, 0x13, 0xb0, 0xdf, 0x9e, 0x8d,
  0x1d, 0x3d, 0x06, 0xe4, 0xe0, 0xf3, 0x8c, 0x81, 0xfd, 0x06, 0x0b, 0x25,
  0xc9, 0xc2, 0xc0, 0x46, 0x48, 0xc5, 0xf4, 0x14, 0x3d, 0x4c, 0xa6, 0x8b,
  0x42, 0x22, 0xd3, 0xe2, 0x0f, 0xd3, 0xad, 0x98, 0xef, 0x06, 0x8f, 0xa5,
  0xa4, 0x24, 0x0f, 0xce, 0x16, 0xdb, 0xe7, 0x82, 0x2a, 0x8e, 0x40, 0xff,
  0x03, 0x2b, 0x09, 0x0f, 0x93, 0x8b, 0x4a, 0x98, 0xf5, 0x21, 0x1c, 0x42,
  0x04, 0x18, 0x7f, 0x3a, 0x08, 0xf4, 0xbc, 0xe2, 0xee, 0xf5, 0x2d, 0xdf,
  0x08, 0xf7, 0xc3, 0x29, 0x4e, 0x03, 0xf7, 0x68, 0x2d, 0x01, 0x2b, 0xe9,
  0xc1, 0x29, 0x3b, 0x26, 0xe2, 0xb0, 0x65, 0x65, 0xf8, 0x59, 0x24, 0xb0,
  0xc8, 0x5c, 0xcf, 0x5e, 0x21, 0x10, 0x1b, 0x9e, 0x09, 0xfa, 0xf1, 0x1d,
  0x2a, 0xfa, 0xea, 0x10, 0x10, 0xd4, 0x50, 0x12, 0xca, 0x34, 0x3d, 0x19,
  0x3c, 0xf2, 0x34, 0xc5, 0x34, 0xaf, 0x3a, 0x2c, 0xee, 0x34, 0x16, 0xe8,
  0x81, 0xc9, 0x1b, 0x40, 0xfb, 0x85, 0x0f, 0xa6, 0x17, 0x06, 0x96, 0xf3,
  0x00, 0xea, 0x9a, 0xc3, 0x30, 0x4e, 0x31, 0xd5, 0xe1, 0xbf, 0xe0, 0xfc,
  0x87, 0x9d, 0x34, 0x23, 0x68, 0xfa, 0xa5, 0xfc, 0x62, 0x27, 0xc6, 0xcc,
  0xea, 0x41, 0x84, 0xf1, 0x1a, 0x29, 0x56, 0x05, 0xfd, 0xa8, 0xc9, 0x3f,
  0xb1, 0xaf, 0xd0, 0xd9, 0x18, 0x91, 0xf2, 0xf0, 0xfe, 0xda, 0xfe, 0x31,
  0xf0, 0xb9, 0xe9, 0xd0, 0x23, 0x49, 0xd4, 0x26, 0x3b, 0x12, 0xc1, 0xa9,
  0x44, 0xdc, 0xfb, 0x81, 0xad, 0x49, 0xde, 0x1e, 0xfb, 0x0a, 0xb5, 0xe0,
  0x32, 0xf2, 0xb2, 0xe4, 0x45, 0x22, 0x2e, 0x31, 0x27, 0xe6, 0x2d, 0x03,
  0xe9, 0xc3, 0x02, 0x31, 0xdc, 0x50, 0xe9, 0xcc, 0xce, 0xdd, 0x48, 0xe1,
  0xb4, 0x10, 0xfa, 0xd9, 0xfc, 0x12, 0xfe, 0x02, 0xfa, 0xf1, 0x60, 0x5c,
  0xf2, 0xfe, 0x55, 0x99, 0x51, 0x5f, 0x42, 0x04, 0xe9, 0xcb, 0x0c, 0xa9,
  0x3e, 0xf0, 0xef, 0xf0, 0xa7, 0x76, 0x74, 0x07, 0x75, 0xf6, 0xd6, 0x53,
  0x53, 0x2a, 0x09, 0x0d, 0x50, 0x02, 0x52, 0x2b, 0x6b, 0x32, 0x0d, 0x44,
  0xac, 0xd5, 0x22, 0x1f, 0xbd, 0xde, 0xb4, 0xf8, 0xd8, 0xe4, 0x1e, 0x31,
  0x56, 0x7f, 0x0e, 0x77, 0xef, 0xf1, 0x33, 0x42, 0x08, 0x78, 0xfa, 0x29,
  0xb3, 0xe0, 0x7a, 0x2f, 0xfb, 0xb2, 0x3c, 0x08, 0x3d, 0xb9, 0xe0, 0xd0,
  0xef, 0xd6, 0x0e, 0x08, 0xe9, 0x5e, 0xad, 0x25, 0x4d, 0x16, 0x31, 0x3f,
  0x3d, 0x71, 0x70, 0xf9, 0xf6, 0x29, 0x08, 0x34, 0x2e, 0x27, 0x19, 0x3a,
  0x1b, 0xbf, 0xf6, 0x99, 0xd9, 0x6b, 0x51, 0x7f, 0x2a, 0x49, 0x02, 0xd7,
  0xd7, 0xfd, 0xe9, 0x4b, 0x11, 0xa5, 0x8f, 0x29, 0xc6, 0x09, 0x30, 0x16,
  0xa4, 0x56, 0x1c, 0xb0, 0x95, 0x40, 0xf6, 0x8c, 0x24, 0xda, 0xdb, 0x40,
  0x1a, 0x0e, 0xee, 0xcf, 0xfc, 0x04, 0xfc, 0xc0, 0xe9, 0xd1, 0xc5, 0xd4,
  0xf9, 0xf5, 0x98, 0xe3, 0x02, 0x43, 0x4a, 0x24, 0x18, 0x9e, 0x9d, 0xbd,
  0xcc, 0x31, 0xec, 0xcb, 0xd1, 0x0a, 0x81, 0xa8, 0x37, 0x22, 0x2e, 0xf3,
  0x8e, 0xdc, 0x3c, 0xcf, 0xcb, 0x23, 0x91, 0x03, 0xce, 0xaa, 0x0f, 0x02,
  0xa2, 0x24, 0x2a, 0x15, 0x0d, 0x30, 0xb8, 0xe5, 0x18, 0xf7, 0x0b, 0xdd,
  0xb5, 0xf8, 0xf3, 0x0c, 0xc5, 0x35, 0xc4, 0x17, 0x33, 0x91, 0xb8, 0xf8,
  0x46, 0x95, 0xaa, 0x89, 0x93, 0x8f, 0x92, 0xdb, 0xa0, 0xe5, 0x5a, 0x3f,
  0xe5, 0x44, 0x1f, 0xe5, 0x26, 0x13, 0x39, 0x9e, 0xe8, 0x19, 0x0e, 0x40,
  0xd8, 0x1e, 0xe9, 0xb4, 0xf5, 0xe2, 0x0a, 0xd6, 0x3c, 0x39, 0xb0, 0xbb,
  0xaf, 0xb8, 0xda, 0x9d, 0x96, 0xf6, 0xe6, 0x05, 0xff, 0x14, 0x81, 0x1b,
  0x30, 0xf2, 0x05, 0x00, 0x16, 0x13, 0x49, 0xce, 0x26, 0x12, 0x08, 0x09,
  0xfd, 0x29, 0xec, 0xd0, 0x0d, 0x37, 0x3d, 0x44, 0x30, 0x0b, 0xe2, 0x15,
  0x23, 0x1a, 0xc7, 0x3f, 0xfb, 0xe5, 0xd6, 0x3f, 0xd7, 0xe0, 0x0c, 0x31,
  0x38, 0xee, 0x42, 0x3e, 0x0d, 0xd0, 0x0c, 0x22, 0xcf, 0xf5, 0x39, 0x7f,
  0x13, 0x24, 0xfe, 0x10, 0x17, 0x15, 0xfe, 0x3f, 0xef, 0xdd, 0x34, 0x35,
  0xf1, 0x08, 0xec, 0xe4, 0x4e, 0xfd, 0x02, 0x31, 0x8c, 0xde, 0xc6, 0x17,
  0x89, 0x57, 0x2a, 0xac, 0x06, 0xfc, 0xa3, 0x94, 0xae, 0x9b, 0x86, 0xee,
  0xde, 0x4a, 0x2e, 0xf6, 0x48, 0xfe, 0x42, 0x2e, 0xe8, 0xd5, 0x54, 0x27,
  0x36, 0x81, 0x02, 0xd6, 0xfb, 0x2e, 0x26, 0x3a, 0xb9, 0x98, 0x42, 0x57,
  0xda, 0xd1, 0x14, 0xe9, 0xd0, 0x47, 0xef, 0x10, 0x22, 0xa0, 0xcf, 0x3a,
  0xaa, 0xf3, 0xcc, 0x2a, 0x4e, 0x72, 0x4e, 0x2c, 0x00, 0xc3, 0xfc, 0xce,
  0xb8, 0xac, 0xa0, 0x9b, 0xc6, 0x1c, 0xc8, 0x2c, 0xa9, 0x0c, 0xf5, 0xe8,
  0x29, 0x20, 0xd8, 0x0f, 0xfb, 0x25, 0x27, 0x1f, 0xa3, 0xb2, 0x0a, 0x91,
  0xe2, 0x96, 0x49, 0x95, 0xfa, 0xb3, 0xbc, 0x12, 0x92, 0xee, 0x02, 0xed,
  0x81, 0xdf, 0xea, 0x2e, 0xf9, 0xb2, 0xa8, 0xff, 0x34, 0xfd, 0xe5, 0xfa,
  0x15, 0xa7, 0xe1, 0xce, 0xc2, 0x9c, 0x21, 0xd8, 0x28, 0x8c, 0x47, 0x1d,
  0xd4, 0x7f, 0xdb, 0x2c, 0xd7, 0xda, 0xf1, 0x22, 0x32, 0x15, 0x05, 0x2d,
  0x37, 0x30, 0x43, 0xda, 0x43, 0xd1, 0x19, 0x2e, 0xd4, 0xc7, 0xef, 0xf3,
  0x99, 0x21, 0xdf, 0xbc, 0xed, 0x19, 0xfb, 0xf1, 0xd7, 0x55, 0xe4, 0x02,
  0xf3, 0xf8, 0x0d, 0x29, 0xe3, 0xd3, 0xca, 0x93, 0xcc, 0xeb, 0xc1, 0x37,
  0x17, 0x00, 0x0f, 0xd0, 0xa5, 0xe7, 0xc0, 0xec, 0x2a, 0x19, 0x3e, 0xe2,
  0x06, 0x94, 0x18, 0xcf, 0x27, 0x20, 0x2f, 0x9e, 0x92, 0x2e, 0xab, 0x50,
  0xca, 0xbe, 0xc2, 0xb7, 0x53, 0xa4, 0x8a, 0x16, 0xd2, 0xb0, 0xb2, 0xee,
  0x5c, 0xfa, 0xc6, 0x24, 0x3b, 0xec, 0x47, 0xc4, 0x0c, 0xdf, 0x8a, 0x85,
  0xe0, 0x45, 0x19, 0xd7, 0xfb, 0x34, 0xe9, 0xb9, 0xa2, 0xc0, 0x98, 0x8b,
  0xbe, 0x25, 0x94, 0xc1, 0xa3, 0xd4, 0x8a, 0xe6, 0x4a, 0x1b, 0xe3, 0xd4,
  0xb8, 0x49, 0xe9, 0x81, 0xd5, 0xc4, 0xb9, 0x0f, 0x39, 0xa1, 0xe4, 0x9e,
  0x22, 0x04, 0x37, 0xa5, 0x06, 0x13, 0xb3, 0x1b, 0xef, 0xf6, 0x05, 0x31,
  0x81, 0x31, 0xb1, 0x95, 0x24, 0x1c, 0xc0, 0x18, 0xc1, 0xf2, 0x16, 0x12,
  0x37, 0xdb, 0x4c, 0xe5, 0x03, 0x97, 0xd2, 0x85, 0xcd, 0xe8, 0x42, 0x1f,
  0x5d, 0x37, 0xc8, 0x88, 0x3c, 0x8d, 0x3a, 0x9d, 0x2f, 0xba, 0x01, 0x86,
  0xec, 0x92, 0xe8, 0xa4, 0xd5, 0xe5, 0xbc, 0x1d, 0x04, 0xad, 0xe1, 0x39,
  0xcb, 0x00, 0xf5, 0xaa, 0x1d, 0x57, 0x24, 0xbf, 0x1f, 0xe5, 0x0e, 0xd6,
  0x2b, 0xe6, 0x93, 0x32, 0x36, 0xe0, 0xc4, 0x27, 0x26, 0x06, 0x20, 0xb4,
  0x01, 0xa9, 0xb3, 0xa4, 0xfe, 0x8b, 0x8b, 0x3e, 0xc0, 0xe8, 0xf9, 0xe6,
  0xdd, 0x0b, 0xd6, 0x98, 0xe4, 0xed, 0x11, 0x86, 0x05, 0xba, 0xb9, 0xc9,
  0x3b, 0xa3, 0x0e, 0xdc, 0xf1, 0xd0, 0xf5, 0x11, 0xec, 0xe9, 0xf5, 0x4b,
  0x81, 0x9f, 0xae, 0xd3, 0xd6, 0xfe, 0xff, 0xff, 0x04, 0x00, 0x00, 0x00,
  0x80, 0x00, 0x00, 0x00, 0xe5, 0x02, 0xa7, 0xbe, 0xd5, 0xb2, 0x88, 0x3d,
  0x45, 0xfd, 0xd2, 0x3a, 0xa0, 0xac, 0xa1, 0xbe, 0x28, 0xb4, 0x87, 0xbe,
  0xc1, 0xcf, 0x8e, 0xbe, 0x1b, 0xc0, 0x94, 0xbc, 0xd4, 0xa8, 0x9b, 0xbe,
  0x23, 0xf7, 0x3d, 0xbe, 0xd0, 0x39, 0x4d, 0xbb, 0x4a, 0xd7, 0x89, 0x3b,
  0x4a, 0xdf, 0x1e, 0xbb, 0x0a, 0x08, 0x23, 0xbe, 0x8c, 0xc4, 0x00, 0xbb,
  0xcc, 0xe1, 0x37, 0xbc, 0x4f, 0xb2, 0xf5, 0xbd, 0x82, 0xc6, 0x0a, 0xbb,
  0xd1, 0x47, 0xfc, 0xbb, 0x79, 0xca, 0x9b, 0xbc, 0x74, 0xb7, 0x30, 0x3c,
  0xd6, 0xcf, 0x75, 0xbb, 0xb1, 0x41, 0x13, 0xbe, 0xae, 0x40, 0x47, 0xba,
  0xf5, 0x23, 0x91, 0xbe, 0x48, 0x15, 0x31, 0xbe, 0xf6, 0x84, 0x37, 0x3e,
  0xf1, 0x6b, 0xf2, 0x3b, 0xbd, 0x15, 0x04, 0xbe, 0xac, 0xda, 0x33, 0x3d,
  0x74, 0xe7, 0x87, 0xbe, 0x0b, 0xeb, 0x89, 0x3e, 0xe1, 0x90, 0xb7, 0x3d,
  0x62, 0xff, 0xff, 0xff, 0x04, 0x00, 0x00, 0x00, 0x04, 0x00, 0x00, 0x00,
  0x46, 0x7b, 0xed, 0x3b, 0x72, 0xff, 0xff, 0xff, 0x04, 0x00, 0x00, 0x00,
  0x80, 0x00, 0x00, 0x00, 0x74, 0x75, 0xc9, 0xbd, 0x1f, 0x95, 0x1e, 0x3d,
  0xdd, 0x4d, 0x80, 0xbe, 0x57, 0x04, 0x0b, 0xbe, 0xce, 0x59, 0x4d, 0xbe,
  0x5a, 0x34, 0x04, 0xbe, 0x95, 0x71, 0x99, 0xbd, 0xea, 0xfe, 0x3f, 0xbe,
  0x24, 0xc8, 0xfa, 0xbd, 0x2f, 0x52, 0x16, 0xbe, 0xd5, 0xae, 0x94, 0xbd,
  0x41, 0x23, 0xdb, 0xbd, 0x21, 0x76, 0x04, 0xbe, 0xc5, 0x3b, 0x5c, 0xbd,
  0x60, 0x5f, 0x97, 0xbc, 0x43, 0x6d, 0xfe, 0x3c, 0x2c, 0x02, 0xd9, 0xbe,
  0x48, 0x62, 0xf9, 0xbd, 0x5f, 0x01, 0xfc, 0x3c, 0x99, 0x4c, 0x1d, 0xbe,
  0x65, 0x85, 0xa9, 0xbd, 0x75, 0x14, 0xd1, 0x3d, 0x6d, 0xf6, 0x5d, 0xbd,
  0xa5, 0x8a, 0xb9, 0xbd, 0x33, 0x08, 0xc7, 0xbd, 0x92, 0xad, 0xc2, 0x3d,
  0x09, 0xaa, 0xa0, 0xbd, 0x62, 0x43, 0x29, 0xbe, 0xee, 0x8d, 0x32, 0xbf,
  0xe9, 0xd2, 0xf1, 0xbd, 0xdc, 0xaf, 0xc2, 0xbd, 0xef, 0x58, 0xe1, 0xbd,
  0x00, 0x00, 0x06, 0x00, 0x08, 0x00, 0x04, 0x00, 0x06, 0x00, 0x00, 0x00,
  0x04, 0x00, 0x00, 0x00, 0x00, 0x01, 0x00, 0x00, 0x39, 0x62, 0xae, 0xbe,
  0x20, 0x45, 0x7b, 0xbf, 0x04, 0x2b, 0x00, 0xbf, 0x8b, 0x7a, 0xbb, 0xbe,
  0xd7, 0x20, 0xb6, 0xbe, 0x24, 0x45, 0x95, 0xbe, 0xc8, 0x28, 0x12, 0xbf,
  0x6a, 0x65, 0xd6, 0xbe, 0x4f, 0x39, 0x09, 0xbf, 0x82, 0x28, 0x5f, 0xbf,
  0xac, 0x3c, 0xa3, 0xbe, 0x33, 0xb6, 0xa5, 0xbe, 0x18, 0x5e, 0xcf, 0xbe,
  0xd3, 0x69, 0x90, 0xbe, 0x60, 0xaf, 0x8a, 0xbe, 0x47, 0x12, 0xaa, 0xbe,
  0x4f, 0x19, 0xdb, 0xbe, 0x9f, 0x9e, 0x8c, 0xbe, 0x6f, 0xab, 0xc3, 0xbd,
  0xd8, 0xcd, 0xbe, 0xbe, 0x9c, 0x8a, 0x74, 0xbe, 0x09, 0x37, 0x7f, 0xbe,
  0x87, 0x25, 0x32, 0x3d, 0x42, 0x96, 0x0f, 0xbf, 0x84, 0x0a, 0x3d, 0xbe,
  0x68, 0x28, 0xa3, 0xbe, 0x28, 0x23, 0x85, 0xbe, 0xa0, 0x09, 0x8b, 0xbe,
  0x6d, 0x38, 0x92, 0xbe, 0x2a, 0xf6, 0x8f, 0xbe, 0xfe, 0xaf, 0x8a, 0xbe,
  0xb4, 0x43, 0x38, 0xbf, 0x73, 0x7b, 0xb6, 0xbe, 0x23, 0x1e, 0xd4, 0xbe,
  0xf7, 0xb7, 0x4b, 0xbe, 0x15, 0xa6, 0x29, 0xbe, 0x57, 0x3c, 0x94, 0xbe,
  0xcc, 0x97, 0x2c, 0xbf, 0x98, 0x7f, 0x91, 0xbe, 0xed, 0x8f, 0x20, 0xbf,
  0xb6, 0x87, 0x17, 0xbf, 0x89, 0x65, 0x89, 0xbe, 0x8c, 0x7a, 0x9f, 0xbe,
  0x04, 0xad, 0x7e, 0xbe, 0xe1, 0xda, 0x96, 0xbe, 0x46, 0x76, 0xc3, 0xbe,
  0x67, 0x74, 0x7e, 0xbe, 0x66, 0x59, 0x47, 0xbd, 0x04, 0x3a, 0xa5, 0xbe,
  0x79, 0x53, 0xb5, 0xbe, 0x95, 0x8c, 0xb7, 0xbe, 0x1f, 0x0e, 0x45, 0xbe,
  0x32, 0xf6, 0x98, 0xbe, 0x40, 0xc3, 0xb8, 0x3d, 0x38, 0xef, 0x99, 0xbe,
  0x9b, 0x58, 0x65, 0xbe, 0x0b, 0x8e, 0xb3, 0xbe, 0xd0, 0xa7, 0x75, 0xbe,
  0xa2, 0xb1, 0xb0, 0xbe, 0xaf, 0xa9, 0xbd, 0xbe, 0x3c, 0xa9, 0xe7, 0xbe,
  0xb9, 0xb4, 0x4a, 0xbf, 0x1a, 0x9e, 0xa2, 0xbe, 0x81, 0x9f, 0xcc, 0xbe,
  0xc8, 0xf5, 0xff, 0xff, 0xcc, 0xf5, 0xff, 0xff, 0x0f, 0x00, 0x00, 0x00,
  0x4d, 0x4c, 0x49, 0x52, 0x20, 0x43, 0x6f, 0x6e, 0x76, 0x65, 0x72, 0x74,
  0x65, 0x64, 0x2e, 0x00, 0x01, 0x00, 0x00, 0x00, 0x14, 0x00, 0x00, 0x00,
  0x00, 0x00, 0x0e, 0x00, 0x18, 0x00, 0x14, 0x00, 0x10, 0x00, 0x0c, 0x00,
  0x08, 0x00, 0x04, 0x00, 0x0e, 0x00, 0x00, 0x00, 0x14, 0x00, 0x00, 0x00,
  0x1c, 0x00, 0x00, 0x00, 0x0c, 0x01, 0x00, 0x00, 0x10, 0x01, 0x00, 0x00,
  0x14, 0x01, 0x00, 0x00, 0x04, 0x00, 0x00, 0x00, 0x6d, 0x61, 0x69, 0x6e,
  0x00, 0x00, 0x00, 0x00, 0x04, 0x00, 0x00, 0x00, 0xb0, 0x00, 0x00, 0x00,
  0x68, 0x00, 0x00, 0x00, 0x34, 0x00, 0x00, 0x00, 0x10, 0x00, 0x00, 0x00,
  0x00, 0x00, 0x0a, 0x00, 0x10, 0x00, 0x0c, 0x00, 0x08, 0x00, 0x04, 0x00,
  0x0a, 0x00, 0x00, 0x00, 0x0c, 0x00, 0x00, 0x00, 0x10, 0x00, 0x00, 0x00,
  0x01, 0x00, 0x00, 0x00, 0x01, 0x00, 0x00, 0x00, 0x0a, 0x00, 0x00, 0x00,
  0x01, 0x00, 0x00, 0x00, 0x09, 0x00, 0x00, 0x00, 0x9a, 0xff, 0xff, 0xff,
  0x10, 0x00, 0x00, 0x00, 0x00, 0x00, 0x00, 0x08, 0x0c, 0x00, 0x00, 0x00,
  0x10, 0x00, 0x00, 0x00, 0x74, 0xf6, 0xff, 0xff, 0x01, 0x00, 0x00, 0x00,
  0x09, 0x00, 0x00, 0x00, 0x03, 0x00, 0x00, 0x00, 0x08, 0x00, 0x00, 0x00,
  0x04, 0x00, 0x00, 0x00, 0x03, 0x00, 0x00, 0x00, 0xca, 0xff, 0xff, 0xff,
  0x10, 0x00, 0x00, 0x00, 0x00, 0x00, 0x00, 0x08, 0x10, 0x00, 0x00, 0x00,
  0x14, 0x00, 0x00, 0x00, 0xbc, 0xff, 0xff, 0xff, 0x00, 0x00, 0x01, 0x01,
  0x01, 0x00, 0x00, 0x00, 0x08, 0x00, 0x00, 0x00, 0x03, 0x00, 0x00, 0x00,
  0x07, 0x00, 0x00, 0x00, 0x05, 0x00, 0x00, 0x00, 0x02, 0x00, 0x00, 0x00,
  0x00, 0x00, 0x0e, 0x00, 0x14, 0x00, 0x00, 0x00, 0x10, 0x00, 0x0c, 0x00,
  0x0b, 0x00, 0x04, 0x00, 0x0e, 0x00, 0x00, 0x00, 0x1c, 0x00, 0x00, 0x00,
  0x00, 0x00, 0x00, 0x08, 0x1c, 0x00, 0x00, 0x00, 0x20, 0x00, 0x00, 0x00,
  0x0c, 0x00, 0x08, 0x00, 0x07, 0x00, 0x00, 0x00, 0x00, 0x00, 0x06, 0x00,
  0x0c, 0x00, 0x00, 0x00, 0x00, 0x00, 0x01, 0x01, 0x01, 0x00, 0x00, 0x00,
  0x07, 0x00, 0x00, 0x00, 0x03, 0x00, 0x00, 0x00, 0x00, 0x00, 0x00, 0x00,
  0x06, 0x00, 0x00, 0x00, 0x01, 0x00, 0x00, 0x00, 0x01, 0x00, 0x00, 0x00,
  0x0a, 0x00, 0x00, 0x00, 0x01, 0x00, 0x00, 0x00, 0x00, 0x00, 0x00, 0x00,
  0x0b, 0x00, 0x00, 0x00, 0xb0, 0x08, 0x00, 0x00, 0x5c, 0x08, 0x00, 0x00,
  0x08, 0x08, 0x00, 0x00, 0xcc, 0x07, 0x00, 0x00, 0x8c, 0x07, 0x00, 0x00,
  0xa8, 0x05, 0x00, 0x00, 0x28, 0x02, 0x00, 0x00, 0x84, 0x01, 0x00, 0x00,
  0xe0, 0x00, 0x00, 0x00, 0x60, 0x00, 0x00, 0x00, 0x04, 0x00, 0x00, 0x00,
  0x92, 0xf7, 0xff, 0xff, 0x00, 0x00, 0x00, 0x01, 0x14, 0x00, 0x00, 0x00,
  0x1c, 0x00, 0x00, 0x00, 0x1c, 0x00, 0x00, 0x00, 0x0b, 0x00, 0x00, 0x00,
  0x34, 0x00, 0x00, 0x00, 0x02, 0x00, 0x00, 0x00, 0xff, 0xff, 0xff, 0xff,
  0x01, 0x00, 0x00, 0x00, 0x7c, 0xf7, 0xff, 0xff, 0x1b, 0x00, 0x00, 0x00,
  0x53, 0x74, 0x61, 0x74, 0x65, 0x66, 0x75, 0x6c, 0x50, 0x61, 0x72, 0x74,
  0x69, 0x74, 0x69, 0x6f, 0x6e, 0x65, 0x64, 0x43, 0x61, 0x6c, 0x6c, 0x5f,
  0x31, 0x3a, 0x30, 0x00, 0x02, 0x00, 0x00, 0x00, 0x01, 0x00, 0x00, 0x00,
  0x01, 0x00, 0x00, 0x00, 0xea, 0xf7, 0xff, 0xff, 0x00, 0x00, 0x00, 0x01,
  0x14, 0x00, 0x00, 0x00, 0x1c, 0x00, 0x00, 0x00, 0x1c, 0x00, 0x00, 0x00,
  0x0a, 0x00, 0x00, 0x00, 0x58, 0x00, 0x00, 0x00, 0x02, 0x00, 0x00, 0x00,
  0xff, 0xff, 0xff, 0xff, 0x01, 0x00, 0x00, 0x00, 0xd4, 0xf7, 0xff, 0xff,
  0x3e, 0x00, 0x00, 0x00, 0x73, 0x65, 0x71, 0x75, 0x65, 0x6e, 0x74, 0x69,
  0x61, 0x6c, 0x5f, 0x38, 0x5f, 0x31, 0x2f, 0x64, 0x65, 0x6e, 0x73, 0x65,
  0x5f, 0x32, 0x36, 0x5f, 0x31, 0x2f, 0x4d, 0x61, 0x74, 0x4d, 0x75, 0x6c,
  0x3b, 0x73, 0x65, 0x71, 0x75, 0x65, 0x6e, 0x74, 0x69, 0x61, 0x6c, 0x5f,
  0x38, 0x5f, 0x31, 0x2f, 0x64, 0x65, 0x6e, 0x73, 0x65, 0x5f, 0x32, 0x36,
  0x5f, 0x31, 0x2f, 0x41, 0x64, 0x64, 0x00, 0x00, 0x02, 0x00, 0x00, 0x00,
  0x01, 0x00, 0x00, 0x00, 0x01, 0x00, 0x00, 0x00, 0x66, 0xf8, 0xff, 0xff,
  0x00, 0x00, 0x00, 0x01, 0x14, 0x00, 0x00, 0x00, 0x1c, 0x00, 0x00, 0x00,
  0x1c, 0x00, 0x00, 0x00, 0x09, 0x00, 0x00, 0x00, 0x7c, 0x00, 0x00, 0x00,
  0x02, 0x00, 0x00, 0x00, 0xff, 0xff, 0xff, 0xff, 0x20, 0x00, 0x00, 0x00,
  0x50, 0xf8, 0xff, 0xff, 0x61, 0x00, 0x00, 0x00, 0x73, 0x65, 0x71, 0x75,
  0x65, 0x6e, 0x74, 0x69, 0x61, 0x6c, 0x5f, 0x38, 0x5f, 0x31, 0x2f, 0x64,
  0x65, 0x6e, 0x73, 0x65, 0x5f, 0x32, 0x35, 0x5f, 0x31, 0x2f, 0x4d, 0x61,
  0x74, 0x4d, 0x75, 0x6c, 0x3b, 0x73, 0x65, 0x71, 0x75, 0x65, 0x6e, 0x74,
  0x69, 0x61, 0x6c, 0x5f, 0x38, 0x5f, 0x31, 0x2f, 0x64, 0x65, 0x6e, 0x73,
  0x65, 0x5f, 0x32, 0x35, 0x5f, 0x31, 0x2f, 0x52, 0x65, 0x6c, 0x75, 0x3b,
  0x73, 0x65, 0x71, 0x75, 0x65, 0x6e, 0x74, 0x69, 0x61, 0x6c, 0x5f, 0x38,
  0x5f, 0x31, 0x2f, 0x64, 0x65, 0x6e, 0x73, 0x65, 0x5f, 0x32, 0x35, 0x5f,
  0x31, 0x2f, 0x42, 0x69, 0x61, 0x73, 0x41, 0x64, 0x64, 0x00, 0x00, 0x00,
  0x02, 0x00, 0x00, 0x00, 0x01, 0x00, 0x00, 0x00, 0x20, 0x00, 0x00, 0x00,
  0x06, 0xf9, 0xff, 0xff, 0x00, 0x00, 0x00, 0x01, 0x14, 0x00, 0x00, 0x00,
  0x1c, 0x00, 0x00, 0x00, 0x1c, 0x00, 0x00, 0x00, 0x08, 0x00, 0x00, 0x00,
  0x7c, 0x00, 0x00, 0x00, 0x02, 0x00, 0x00, 0x00, 0xff, 0xff, 0xff, 0xff,
  0x40, 0x00, 0x00, 0x00, 0xf0, 0xf8, 0xff, 0xff, 0x61, 0x00, 0x00, 0x00,
  0x73, 0x65, 0x71, 0x75, 0x65, 0x6e, 0x74, 0x69, 0x61, 0x6c, 0x5f, 0x38,
  0x5f, 0x31, 0x2f, 0x64, 0x65, 0x6e, 0x73, 0x65, 0x5f, 0x32, 0x34, 0x5f,
  0x31, 0x2f, 0x4d, 0x61, 0x74, 0x4d, 0x75, 0x6c, 0x3b, 0x73, 0x65, 0x71,
  0x75, 0x65, 0x6e, 0x74, 0x69, 0x61, 0x6c, 0x5f, 0x38, 0x5f, 0x31, 0x2f,
  0x64, 0x65, 0x6e, 0x73, 0x65, 0x5f, 0x32, 0x34, 0x5f, 0x31, 0x2f, 0x52,
  0x65, 0x6c, 0x75, 0x3b, 0x73, 0x65, 0x71, 0x75, 0x65, 0x6e, 0x74, 0x69,
  0x61, 0x6c, 0x5f, 0x38, 0x5f, 0x31, 0x2f, 0x64, 0x65, 0x6e, 0x73, 0x65,
  0x5f, 0x32, 0x34, 0x5f, 0x31, 0x2f, 0x42, 0x69, 0x61, 0x73, 0x41, 0x64,
  0x64, 0x00, 0x00, 0x00, 0x02, 0x00, 0x00, 0x00, 0x01, 0x00, 0x00, 0x00,
  0x40, 0x00, 0x00, 0x00, 0x9a, 0xfc, 0xff, 0xff, 0x00, 0x00, 0x00, 0x01,
  0x14, 0x00, 0x00, 0x00, 0x24, 0x03, 0x00, 0x00, 0x07, 0x00, 0x00, 0x00,
  0x00, 0x00, 0x00, 0x09, 0x40, 0x03, 0x00, 0x00, 0x84, 0xfc, 0xff, 0xff,
  0x08, 0x00, 0x00, 0x00, 0x08, 0x02, 0x00, 0x00, 0x40, 0x00, 0x00, 0x00,
  0x00, 0x00, 0x00, 0x00, 0x00, 0x00, 0x00, 0x00, 0x00, 0x00, 0x00, 0x00,
  0x00, 0x00, 0x00, 0x00, 0x00, 0x00, 0x00, 0x00, 0x00, 0x00, 0x00, 0x00,
  0x00, 0x00, 0x00, 0x00, 0x00, 0x00, 0x00, 0x00, 0x00, 0x00, 0x00, 0x00,
  0x00, 0x00, 0x00, 0x00, 0x00, 0x00, 0x00, 0x00, 0x00, 0x00, 0x00, 0x00,
  0x00, 0x00, 0x00, 0x00, 0x00, 0x00, 0x00, 0x00, 0x00, 0x00, 0x00, 0x00,
  0x00, 0x00, 0x00, 0x00, 0x00, 0x00, 0x00, 0x00, 0x00, 0x00, 0x00, 0x00,
  0x00, 0x00, 0x00, 0x00, 0x00, 0x00, 0x00, 0x00, 0x00, 0x00, 0x00, 0x00,
  0x00, 0x00, 0x00, 0x00, 0x00, 0x00, 0x00, 0x00, 0x00, 0x00, 0x00, 0x00,
  0x00, 0x00, 0x00, 0x00, 0x00, 0x00, 0x00, 0x00, 0x00, 0x00, 0x00, 0x00,
  0x00, 0x00, 0x00, 0x00, 0x00, 0x00, 0x00, 0x00, 0x00, 0x00, 0x00, 0x00,
  0x00, 0x00, 0x00, 0x00, 0x00, 0x00, 0x00, 0x00, 0x00, 0x00, 0x00, 0x00,
  0x00, 0x00, 0x00, 0x00, 0x00, 0x00, 0x00, 0x00, 0x00, 0x00, 0x00, 0x00,
  0x00, 0x00, 0x00, 0x00, 0x00, 0x00, 0x00, 0x00, 0x00, 0x00, 0x00, 0x00,
  0x00, 0x00, 0x00, 0x00, 0x00, 0x00, 0x00, 0x00, 0x00, 0x00, 0x00, 0x00,
  0x00, 0x00, 0x00, 0x00, 0x00, 0x00, 0x00, 0x00, 0x00, 0x00, 0x00, 0x00,
  0x00, 0x00, 0x00, 0x00, 0x00, 0x00, 0x00, 0x00, 0x00, 0x00, 0x00, 0x00,
  0x00, 0x00, 0x00, 0x00, 0x00, 0x00, 0x00, 0x00, 0x00, 0x00, 0x00, 0x00,
  0x00, 0x00, 0x00, 0x00, 0x00, 0x00, 0x00, 0x00, 0x00, 0x00, 0x00, 0x00,
  0x00, 0x00, 0x00, 0x00, 0x00, 0x00, 0x00, 0x00, 0x00, 0x00, 0x00, 0x00,
  0x00, 0x00, 0x00, 0x00, 0x00, 0x00, 0x00, 0x00, 0x00, 0x00, 0x00, 0x00,
  0x00, 0x00, 0x00, 0x00, 0x00, 0x00, 0x00, 0x00, 0x00, 0x00, 0x00, 0x00,
  0x00, 0x00, 0x00, 0x00, 0x00, 0x00, 0x00, 0x00, 0x00, 0x00, 0x00, 0x00,
  0x00, 0x00, 0x00, 0x00, 0x00, 0x00, 0x00, 0x00, 0x00, 0x00, 0x00, 0x00,
  0x00, 0x00, 0x00, 0x00, 0x00, 0x00, 0x00, 0x00, 0x00, 0x00, 0x00, 0x00,
  0x00, 0x00, 0x00, 0x00, 0x00, 0x00, 0x00, 0x00, 0x00, 0x00, 0x00, 0x00,
  0x00, 0x00, 0x00, 0x00, 0x00, 0x00, 0x00, 0x00, 0x00, 0x00, 0x00, 0x00,
  0x00, 0x00, 0x00, 0x00, 0x00, 0x00, 0x00, 0x00, 0x00, 0x00, 0x00, 0x00,
  0x00, 0x00, 0x00, 0x00, 0x00, 0x00, 0x00, 0x00, 0x00, 0x00, 0x00, 0x00,
  0x00, 0x00, 0x00, 0x00, 0x00, 0x00, 0x00, 0x00, 0x00, 0x00, 0x00, 0x00,
  0x00, 0x00, 0x00, 0x00, 0x00, 0x00, 0x00, 0x00, 0x00, 0x00, 0x00, 0x00,
  0x00, 0x00, 0x00, 0x00, 0x00, 0x00, 0x00, 0x00, 0x00, 0x00, 0x00, 0x00,
  0x00, 0x00, 0x00, 0x00, 0x00, 0x00, 0x00, 0x00, 0x00, 0x00, 0x00, 0x00,
  0x00, 0x00, 0x00, 0x00, 0x00, 0x00, 0x00, 0x00, 0x00, 0x00, 0x00, 0x00,
  0x00, 0x00, 0x00, 0x00, 0x00, 0x00, 0x00, 0x00, 0x00, 0x00, 0x00, 0x00,
  0x00, 0x00, 0x00, 0x00, 0x00, 0x00, 0x00, 0x00, 0x00, 0x00, 0x00, 0x00,
  0x00, 0x00, 0x00, 0x00, 0x00, 0x00, 0x00, 0x00, 0x00, 0x00, 0x00, 0x00,
  0x00, 0x00, 0x00, 0x00, 0x00, 0x00, 0x00, 0x00, 0x00, 0x00, 0x00, 0x00,
  0x00, 0x00, 0x00, 0x00, 0x00, 0x00, 0x00, 0x00, 0x00, 0x00, 0x00, 0x00,
  0x00, 0x00, 0x00, 0x00, 0x00, 0x00, 0x00, 0x00, 0x00, 0x00, 0x00, 0x00,
  0x00, 0x00, 0x00, 0x00, 0x00, 0x00, 0x00, 0x00, 0x00, 0x00, 0x00, 0x00,
  0x00, 0x00, 0x00, 0x00, 0x00, 0x00, 0x00, 0x00, 0x00, 0x00, 0x00, 0x00,
  0x00, 0x00, 0x00, 0x00, 0x00, 0x00, 0x00, 0x00, 0x00, 0x00, 0x00, 0x00,
  0x00, 0x00, 0x00, 0x00, 0x00, 0x00, 0x00, 0x00, 0x40, 0x00, 0x00, 0x00,
  0x5e, 0x8d, 0x32, 0x39, 0xb4, 0x8a, 0x50, 0x3a, 0x2c, 0x9e, 0xc9, 0x39,
  0x48, 0xde, 0xb5, 0x39, 0xba, 0xbb, 0x87, 0x39, 0xc8, 0x0b, 0x87, 0x39,
  0xc4, 0xca, 0x67, 0x3a, 0xf7, 0x68, 0xcc, 0x39, 0xbb, 0x09, 0x5d, 0x3a,
  0xc2, 0xe0, 0x69, 0x3a, 0xe0, 0x9e, 0xb6, 0x39, 0xc2, 0x67, 0x90, 0x39,
  0xee, 0x0f, 0x8d, 0x39, 0x25, 0x66, 0x81, 0x39, 0x02, 0x30, 0x9a, 0x39,
  0xe2, 0xba, 0xb7, 0x39, 0xb7, 0xc9, 0x6e, 0x39, 0x09, 0x84, 0x98, 0x39,
  0x0b, 0x24, 0x2a, 0x3b, 0x7d, 0x7c, 0x85, 0x39, 0x23, 0xbd, 0x58, 0x39,
  0x2d, 0xf6, 0x70, 0x39, 0x3e, 0x66, 0x35, 0x3b, 0x72, 0xfc, 0xc4, 0x39,
  0x0e, 0xe0, 0x2a, 0x39, 0x7c, 0x9b, 0x94, 0x39, 0xac, 0xad, 0x9a, 0x39,
  0x77, 0x27, 0x8b, 0x39, 0xdd, 0xdd, 0x71, 0x39, 0x87, 0x48, 0xac, 0x39,
  0xe1, 0xa6, 0x28, 0x39, 0xda, 0xd2, 0x2f, 0x3a, 0xd1, 0x3a, 0xce, 0x39,
  0xeb, 0xf9, 0xc3, 0x39, 0xa6, 0x0f, 0x57, 0x39, 0xaa, 0xd0, 0x24, 0x39,
  0x5d, 0x10, 0xa6, 0x39, 0x0f, 0xcf, 0x24, 0x3a, 0x6b, 0xaf, 0xca, 0x39,
  0x64, 0x6c, 0x30, 0x3a, 0xa0, 0x3d, 0xce, 0x39, 0xb4, 0xb9, 0xa3, 0x39,
  0x76, 0x55, 0x85, 0x39, 0xb0, 0xa5, 0x95, 0x39, 0x14, 0x68, 0xc2, 0x39,
  0x8c, 0xe1, 0x0f, 0x3a, 0xc2, 0xcf, 0x9d, 0x39, 0x75, 0x6f, 0x2f, 0x3b,
  0x47, 0x07, 0xb0, 0x39, 0x63, 0x60, 0x99, 0x39, 0x98, 0xea, 0x97, 0x39,
  0xed, 0x2e, 0x30, 0x39, 0xd9, 0xcb, 0xc6, 0x39, 0x9e, 0x1a, 0x2b, 0x3b,
  0xcd, 0x7f, 0x9b, 0x39, 0xee, 0xe5, 0x2f, 0x39, 0x90, 0x34, 0xa5, 0x39,
  0x71, 0xcb, 0x6b, 0x39, 0x1c, 0xae, 0xf2, 0x39, 0xa1, 0x4f, 0x99, 0x39,
  0xd9, 0x49, 0x8c, 0x39, 0x0f, 0xec, 0x46, 0x3a, 0x51, 0x9c, 0xb5, 0x39,
  0x15, 0xe1, 0xb3, 0x39, 0x20, 0x00, 0x00, 0x00, 0x73, 0x65, 0x71, 0x75,
  0x65, 0x6e, 0x74, 0x69, 0x61, 0x6c, 0x5f, 0x38, 0x5f, 0x31, 0x2f, 0x64,
  0x65, 0x6e, 0x73, 0x65, 0x5f, 0x32, 0x34, 0x5f, 0x31, 0x2f, 0x4d, 0x61,
  0x74, 0x4d, 0x75, 0x6c, 0x00, 0x00, 0x00, 0x00, 0x02, 0x00, 0x00, 0x00,
  0x40, 0x00, 0x00, 0x00, 0x14, 0x00, 0x00, 0x00, 0x00, 0x00, 0x16, 0x00,
  0x1c, 0x00, 0x18, 0x00, 0x17, 0x00, 0x10, 0x00, 0x0c, 0x00, 0x08, 0x00,
  0x00, 0x00, 0x00, 0x00, 0x00, 0x00, 0x07, 0x00, 0x16, 0x00, 0x00, 0x00,
  0x00, 0x00, 0x00, 0x01, 0x20, 0x00, 0x00, 0x00, 0xb0, 0x01, 0x00, 0x00,
  0x06, 0x00, 0x00, 0x00, 0x00, 0x00, 0x00, 0x09, 0xbc, 0x01, 0x00, 0x00,
  0x0c, 0x00, 0x0c, 0x00, 0x00, 0x00, 0x00, 0x00, 0x08, 0x00, 0x04, 0x00,
  0x0c, 0x00, 0x00, 0x00, 0x08, 0x00, 0x00, 0x00, 0x08, 0x01, 0x00, 0x00,
  0x20, 0x00, 0x00, 0x00, 0x00, 0x00, 0x00, 0x00, 0x00, 0x00, 0x00, 0x00,
  0x00, 0x00, 0x00, 0x00, 0x00, 0x00, 0x00, 0x00, 0x00, 0x00, 0x00, 0x00,
  0x00, 0x00, 0x00, 0x00, 0x00, 0x00, 0x00, 0x00, 0x00, 0x00, 0x00, 0x00,
  0x00, 0x00, 0x00, 0x00, 0x00, 0x00, 0x00, 0x00, 0x00, 0x00, 0x00, 0x00,
  0x00, 0x00, 0x00, 0x00, 0x00, 0x00, 0x00, 0x00, 0x00, 0x00, 0x00, 0x00,
  0x00, 0x00, 0x00, 0x00, 0x00, 0x00, 0x00, 0x00, 0x00, 0x00, 0x00, 0x00,
  0x00, 0x00, 0x00, 0x00, 0x00, 0x00, 0x00, 0x00, 0x00, 0x00, 0x00, 0x00,
  0x00, 0x00, 0x00, 0x00, 0x00, 0x00, 0x00, 0x00, 0x00, 0x00, 0x00, 0x00,
  0x00, 0x00, 0x00, 0x00, 0x00, 0x00, 0x00, 0x00, 0x00, 0x00, 0x00, 0x00,
  0x00, 0x00, 0x00, 0x00, 0x00, 0x00, 0x00, 0x00, 0x00, 0x00, 0x00, 0x00,
  0x00, 0x00, 0x00, 0x00, 0x00, 0x00, 0x00, 0x00, 0x00, 0x00, 0x00, 0x00,
  0x00, 0x00, 0x00, 0x00, 0x00, 0x00, 0x00, 0x00, 0x00, 0x00, 0x00, 0x00,
  0x00, 0x00, 0x00, 0x00, 0x00, 0x00, 0x00, 0x00, 0x00, 0x00, 0x00, 0x00,
  0x00, 0x00, 0x00, 0x00, 0x00, 0x00, 0x00, 0x00, 0x00, 0x00, 0x00, 0x00,
  0x00, 0x00, 0x00, 0x00, 0x00, 0x00, 0x00, 0x00, 0x00, 0x00, 0x00, 0x00,
  0x00, 0x00, 0x00, 0x00, 0x00, 0x00, 0x00, 0x00, 0x00, 0x00, 0x00, 0x00,
  0x00, 0x00, 0x00, 0x00, 0x00, 0x00, 0x00, 0x00, 0x00, 0x00, 0x00, 0x00,
  0x00, 0x00, 0x00, 0x00, 0x00, 0x00, 0x00, 0x00, 0x00, 0x00, 0x00, 0x00,
  0x00, 0x00, 0x00, 0x00, 0x00, 0x00, 0x00, 0x00, 0x00, 0x00, 0x00, 0x00,
  0x00, 0x00, 0x00, 0x00, 0x00, 0x00, 0x00, 0x00, 0x00, 0x00, 0x00, 0x00,
  0x00, 0x00, 0x00, 0x00, 0x00, 0x00, 0x00, 0x00, 0x00, 0x00, 0x00, 0x00,
  0x00, 0x00, 0x00, 0x00, 0x00, 0x00, 0x00, 0x00, 0x20, 0x00, 0x00, 0x00,
  0x53, 0x57, 0x0f, 0x3b, 0x7b, 0x74, 0x15, 0x3b, 0x12, 0x17, 0x11, 0x3b,
  0x2d, 0x53, 0x16, 0x3b, 0xc6, 0x1a, 0x29, 0x3b, 0xb0, 0xca, 0x10, 0x3b,
  0x0f, 0x55, 0x02, 0x3b, 0xd0, 0xa9, 0x17, 0x3b, 0x81, 0xfc, 0x14, 0x3b,
  0xf8, 0x33, 0x25, 0x3b, 0xce, 0x7f, 0xfa, 0x3a, 0x06, 0x33, 0x15, 0x3b,
  0x14, 0xb6, 0x11, 0x3b, 0x49, 0xe6, 0x06, 0x3b, 0xac, 0x82, 0x27, 0x3b,
  0x87, 0xfa, 0x0f, 0x3b, 0xc9, 0x54, 0x13, 0x3b, 0x64, 0x12, 0x0f, 0x3b,
  0x1d, 0x61, 0x3d, 0x3b, 0x85, 0xbc, 0x01, 0x3b, 0x0e, 0xd7, 0x2e, 0x3b,
  0x30, 0xfc, 0x0a, 0x3b, 0xd2, 0x94, 0xf6, 0x3a, 0x16, 0x5c, 0x20, 0x3b,
  0xa7, 0xaf, 0x1a, 0x3b, 0x2f, 0x60, 0x5a, 0x3b, 0xe8, 0x74, 0x04, 0x3b,
  0x36, 0x47, 0x1d, 0x3b, 0x14, 0xfb, 0x30, 0x3b, 0x52, 0xe0, 0x03, 0x3b,
  0xeb, 0xf0, 0xff, 0x3a, 0x3d, 0x36, 0x15, 0x3b, 0x11, 0x00, 0x00, 0x00,
  0x74, 0x66, 0x6c, 0x2e, 0x70, 0x73, 0x65, 0x75, 0x64, 0x6f, 0x5f, 0x71,
  0x63, 0x6f, 0x6e, 0x73, 0x74, 0x00, 0x00, 0x00, 0x02, 0x00, 0x00, 0x00,
  0x20, 0x00, 0x00, 0x00, 0x40, 0x00, 0x00, 0x00, 0x52, 0xff, 0xff, 0xff,
  0x00, 0x00, 0x00, 0x01, 0x10, 0x00, 0x00, 0x00, 0x10, 0x00, 0x00, 0x00,
  0x05, 0x00, 0x00, 0x00, 0x1c, 0x00, 0x00, 0x00, 0xdc, 0xfe, 0xff, 0xff,
  0x0f, 0x00, 0x00, 0x00, 0x61, 0x72, 0x69, 0x74, 0x68, 0x2e, 0x63, 0x6f,
  0x6e, 0x73, 0x74, 0x61, 0x6e, 0x74, 0x33, 0x00, 0x02, 0x00, 0x00, 0x00,
  0x01, 0x00, 0x00, 0x00, 0x20, 0x00, 0x00, 0x00, 0x8e, 0xff, 0xff, 0xff,
  0x00, 0x00, 0x00, 0x01, 0x10, 0x00, 0x00, 0x00, 0x10, 0x00, 0x00, 0x00,
  0x04, 0x00, 0x00, 0x00, 0x1c, 0x00, 0x00, 0x00, 0x18, 0xff, 0xff, 0xff,
  0x0f, 0x00, 0x00, 0x00, 0x61, 0x72, 0x69, 0x74, 0x68, 0x2e, 0x63, 0x6f,
  0x6e, 0x73, 0x74, 0x61, 0x6e, 0x74, 0x32, 0x00, 0x01, 0x00, 0x00, 0x00,
  0x01, 0x00, 0x00, 0x00, 0xc6, 0xff, 0xff, 0xff, 0x00, 0x00, 0x00, 0x01,
  0x10, 0x00, 0x00, 0x00, 0x10, 0x00, 0x00, 0x00, 0x03, 0x00, 0x00, 0x00,
  0x1c, 0x00, 0x00, 0x00, 0x50, 0xff, 0xff, 0xff, 0x0f, 0x00, 0x00, 0x00,
  0x61, 0x72, 0x69, 0x74, 0x68, 0x2e, 0x63, 0x6f, 0x6e, 0x73, 0x74, 0x61,
  0x6e, 0x74, 0x31, 0x00, 0x01, 0x00, 0x00, 0x00, 0x20, 0x00, 0x00, 0x00,
  0x00, 0x00, 0x16, 0x00, 0x18, 0x00, 0x14, 0x00, 0x00, 0x00, 0x10, 0x00,
  0x0c, 0x00, 0x08, 0x00, 0x00, 0x00, 0x00, 0x00, 0x00, 0x00, 0x07, 0x00,
  0x16, 0x00, 0x00, 0x00, 0x00, 0x00, 0x00, 0x01, 0x10, 0x00, 0x00, 0x00,
  0x10, 0x00, 0x00, 0x00, 0x02, 0x00, 0x00, 0x00, 0x1c, 0x00, 0x00, 0x00,
  0xa0, 0xff, 0xff, 0xff, 0x0e, 0x00, 0x00, 0x00, 0x61, 0x72, 0x69, 0x74,
  0x68, 0x2e, 0x63, 0x6f, 0x6e, 0x73, 0x74, 0x61, 0x6e, 0x74, 0x00, 0x00,
  0x01, 0x00, 0x00, 0x00, 0x40, 0x00, 0x00, 0x00, 0x00, 0x00, 0x16, 0x00,
  0x1c, 0x00, 0x18, 0x00, 0x00, 0x00, 0x14, 0x00, 0x10, 0x00, 0x0c, 0x00,
  0x00, 0x00, 0x00, 0x00, 0x08, 0x00, 0x07, 0x00, 0x16, 0x00, 0x00, 0x00,
  0x00, 0x00, 0x00, 0x01, 0x14, 0x00, 0x00, 0x00, 0x20, 0x00, 0x00, 0x00,
  0x20, 0x00, 0x00, 0x00, 0x01, 0x00, 0x00, 0x00, 0x40, 0x00, 0x00, 0x00,
  0x02, 0x00, 0x00, 0x00, 0xff, 0xff, 0xff, 0xff, 0x14, 0x00, 0x00, 0x00,
  0x04, 0x00, 0x04, 0x00, 0x04, 0x00, 0x00, 0x00, 0x21, 0x00, 0x00, 0x00,
  0x73, 0x65, 0x72, 0x76, 0x69, 0x6e, 0x67, 0x5f, 0x64, 0x65, 0x66, 0x61,
  0x75, 0x6c, 0x74, 0x5f, 0x6b, 0x65, 0x72, 0x61, 0x73, 0x5f, 0x74, 0x65,
  0x6e, 0x73, 0x6f, 0x72, 0x5f, 0x33, 0x32, 0x3a, 0x30, 0x00, 0x00, 0x00,
  0x02, 0x00, 0x00, 0x00, 0x01, 0x00, 0x00, 0x00, 0x14, 0x00, 0x00, 0x00,
  0x02, 0x00, 0x00, 0x00, 0x2c, 0x00, 0x00, 0x00, 0x10, 0x00, 0x00, 0x00,
  0x0c, 0x00, 0x0c, 0x00, 0x0b, 0x00, 0x00, 0x00, 0x00, 0x00, 0x04, 0x00,
  0x0c, 0x00, 0x00, 0x00, 0x0e, 0x00, 0x00, 0x00, 0x00, 0x00, 0x00, 0x0e,
  0x0c, 0x00, 0x10, 0x00, 0x0f, 0x00, 0x00, 0x00, 0x08, 0x00, 0x04, 0x00,
  0x0c, 0x00, 0x00, 0x00, 0x09, 0x00, 0x00, 0x00, 0x0c, 0x00, 0x00, 0x00,
  0x00, 0x00, 0x00, 0x09
};
unsigned int flood_model_tflite_len = 7144;
